const unsigned char model[] = {
  0x1c, 0x00, 0x00, 0x00, 0x54, 0x46, 0x4c, 0x33, 0x14, 0x00, 0x20, 0x00,
  0x1c, 0x00, 0x18, 0x00, 0x14, 0x00, 0x10, 0x00, 0x0c, 0x00, 0x00, 0x00,
  0x08, 0x00, 0x04, 0x00, 0x14, 0x00, 0x00, 0x00, 0x1c, 0x00, 0x00, 0x00,
  0x90, 0x00, 0x00, 0x00, 0xe8, 0x00, 0x00, 0x00, 0x84, 0x06, 0x00, 0x00,
  0x94, 0x06, 0x00, 0x00, 0xe4, 0x0b, 0x00, 0x00, 0x03, 0x00, 0x00, 0x00,
  0x01, 0x00, 0x00, 0x00, 0x10, 0x00, 0x00, 0x00, 0x00, 0x00, 0x0a, 0x00,
  0x10, 0x00, 0x0c, 0x00, 0x08, 0x00, 0x04, 0x00, 0x0a, 0x00, 0x00, 0x00,
  0x0c, 0x00, 0x00, 0x00, 0x1c, 0x00, 0x00, 0x00, 0x3c, 0x00, 0x00, 0x00,
  0x0f, 0x00, 0x00, 0x00, 0x73, 0x65, 0x72, 0x76, 0x69, 0x6e, 0x67, 0x5f,
  0x64, 0x65, 0x66, 0x61, 0x75, 0x6c, 0x74, 0x00, 0x01, 0x00, 0x00, 0x00,
  0x04, 0x00, 0x00, 0x00, 0x98, 0xff, 0xff, 0xff, 0x09, 0x00, 0x00, 0x00,
  0x04, 0x00, 0x00, 0x00, 0x08, 0x00, 0x00, 0x00, 0x6f, 0x75, 0x74, 0x70,
  0x75, 0x74, 0x5f, 0x30, 0x00, 0x00, 0x00, 0x00, 0x01, 0x00, 0x00, 0x00,
  0x04, 0x00, 0x00, 0x00, 0x72, 0xf9, 0xff, 0xff, 0x04, 0x00, 0x00, 0x00,
  0x05, 0x00, 0x00, 0x00, 0x69, 0x6e, 0x70, 0x75, 0x74, 0x00, 0x00, 0x00,
  0x02, 0x00, 0x00, 0x00, 0x34, 0x00, 0x00, 0x00, 0x04, 0x00, 0x00, 0x00,
  0xdc, 0xff, 0xff, 0xff, 0x0c, 0x00, 0x00, 0x00, 0x04, 0x00, 0x00, 0x00,
  0x13, 0x00, 0x00, 0x00, 0x43, 0x4f, 0x4e, 0x56, 0x45, 0x52, 0x53, 0x49,
  0x4f, 0x4e, 0x5f, 0x4d, 0x45, 0x54, 0x41, 0x44, 0x41, 0x54, 0x41, 0x00,
  0x08, 0x00, 0x0c, 0x00, 0x08, 0x00, 0x04, 0x00, 0x08, 0x00, 0x00, 0x00,
  0x0b, 0x00, 0x00, 0x00, 0x04, 0x00, 0x00, 0x00, 0x13, 0x00, 0x00, 0x00,
  0x6d, 0x69, 0x6e, 0x5f, 0x72, 0x75, 0x6e, 0x74, 0x69, 0x6d, 0x65, 0x5f,
  0x76, 0x65, 0x72, 0x73, 0x69, 0x6f, 0x6e, 0x00, 0x0d, 0x00, 0x00, 0x00,
  0x98, 0x05, 0x00, 0x00, 0x90, 0x05, 0x00, 0x00, 0x80, 0x04, 0x00, 0x00,
  0x70, 0x01, 0x00, 0x00, 0x58, 0x01, 0x00, 0x00, 0xc8, 0x00, 0x00, 0x00,
  0xb4, 0x00, 0x00, 0x00, 0xac, 0x00, 0x00, 0x00, 0xa4, 0x00, 0x00, 0x00,
  0x9c, 0x00, 0x00, 0x00, 0x94, 0x00, 0x00, 0x00, 0x74, 0x00, 0x00, 0x00,
  0x04, 0x00, 0x00, 0x00, 0x1a, 0xfa, 0xff, 0xff, 0x04, 0x00, 0x00, 0x00,
  0x60, 0x00, 0x00, 0x00, 0x0c, 0x00, 0x00, 0x00, 0x08, 0x00, 0x0e, 0x00,
  0x08, 0x00, 0x04, 0x00, 0x08, 0x00, 0x00, 0x00, 0x10, 0x00, 0x00, 0x00,
  0x28, 0x00, 0x00, 0x00, 0x00, 0x00, 0x06, 0x00, 0x08, 0x00, 0x04, 0x00,
  0x06, 0x00, 0x00, 0x00, 0x04, 0x00, 0x00, 0x00, 0x01, 0x00, 0x00, 0x00,
  0xea, 0x03, 0x00, 0x00, 0x0c, 0x00, 0x18, 0x00, 0x14, 0x00, 0x10, 0x00,
  0x0c, 0x00, 0x04, 0x00, 0x0c, 0x00, 0x00, 0x00, 0x33, 0x51, 0xe4, 0xfe,
  0x53, 0x41, 0x07, 0x9d, 0x02, 0x00, 0x00, 0x00, 0x02, 0x00, 0x00, 0x00,
  0x04, 0x00, 0x00, 0x00, 0x06, 0x00, 0x00, 0x00, 0x32, 0x2e, 0x31, 0x38,
  0x2e, 0x30, 0x00, 0x00, 0x86, 0xfa, 0xff, 0xff, 0x04, 0x00, 0x00, 0x00,
  0x10, 0x00, 0x00, 0x00, 0x31, 0x2e, 0x31, 0x31, 0x2e, 0x30, 0x00, 0x00,
  0x00, 0x00, 0x00, 0x00, 0x00, 0x00, 0x00, 0x00, 0xec, 0xf5, 0xff, 0xff,
  0xf0, 0xf5, 0xff, 0xff, 0xf4, 0xf5, 0xff, 0xff, 0xf8, 0xf5, 0xff, 0xff,
  0xb2, 0xfa, 0xff, 0xff, 0x04, 0x00, 0x00, 0x00, 0x04, 0x00, 0x00, 0x00,
  0x01, 0x00, 0x00, 0x00, 0xc2, 0xfa, 0xff, 0xff, 0x04, 0x00, 0x00, 0x00,
  0x80, 0x00, 0x00, 0x00, 0xf6, 0x07, 0x3d, 0x3e, 0x75, 0xc4, 0x2b, 0xbd,
  0x3c, 0x16, 0xcf, 0x3d, 0xe4, 0x23, 0x0b, 0x3e, 0x00, 0x00, 0x00, 0x00,
  0x80, 0x4a, 0xa0, 0x3d, 0xdb, 0x62, 0x35, 0xbd, 0xf8, 0x3a, 0xa1, 0x3d,
  0x0a, 0xcf, 0x34, 0xbd, 0x00, 0x00, 0x00, 0x00, 0x14, 0xfa, 0x73, 0xbd,
  0x00, 0x00, 0x00, 0x00, 0xb5, 0xf0, 0xb6, 0xbd, 0x00, 0x20, 0xd6, 0x3d,
  0x6f, 0x6f, 0xee, 0x3d, 0x76, 0xfd, 0xf9, 0x3d, 0x36, 0xc8, 0x02, 0x3e,
  0x00, 0x00, 0x00, 0x00, 0x8a, 0xe1, 0xe3, 0xbd, 0x00, 0x00, 0x00, 0x00,
  0xa9, 0x16, 0x5d, 0xbd, 0xef, 0xd2, 0x34, 0x3d, 0x65, 0xb3, 0x84, 0x3d,
  0x25, 0xcb, 0xf6, 0xbc, 0x00, 0x00, 0x00, 0x00, 0x78, 0xc9, 0x9c, 0x3d,
  0x5f, 0xd0, 0x87, 0x3d, 0x74, 0xcf, 0x02, 0x3e, 0x39, 0xfe, 0xc3, 0xbc,
  0x53, 0xa8, 0x00, 0xbe, 0x72, 0x80, 0xfd, 0xbd, 0x33, 0xc4, 0x64, 0x3e,
  0x4e, 0xfb, 0xff, 0xff, 0x04, 0x00, 0x00, 0x00, 0x08, 0x00, 0x00, 0x00,
  0xf8, 0x50, 0xf1, 0xbd, 0xf8, 0x50, 0xf1, 0x3d, 0x62, 0xfb, 0xff, 0xff,
  0x04, 0x00, 0x00, 0x00, 0x00, 0x03, 0x00, 0x00, 0xd3, 0x6a, 0x03, 0x3d,
  0x13, 0x35, 0x0c, 0xbf, 0xb2, 0x76, 0x7d, 0x3f, 0x6d, 0x98, 0x4c, 0xbe,
  0xb3, 0x15, 0x22, 0x3e, 0xc5, 0x49, 0x82, 0x3e, 0xde, 0x6c, 0x6f, 0x3c,
  0xb0, 0xcb, 0x96, 0xbe, 0xbd, 0xdc, 0x2c, 0xbe, 0xcd, 0x0f, 0xb8, 0xbe,
  0x4e, 0xb3, 0x21, 0x3d, 0xb1, 0x88, 0xf0, 0xbc, 0x78, 0x92, 0x6a, 0x3d,
  0x51, 0x42, 0xcb, 0xbd, 0xe9, 0x8b, 0x82, 0xbe, 0xb2, 0xc4, 0x6c, 0x3e,
  0x30, 0xf2, 0x82, 0x3e, 0x9a, 0x03, 0x78, 0x3d, 0x5c, 0x0f, 0x47, 0xbe,
  0x53, 0xcd, 0xc2, 0xbe, 0x20, 0xe8, 0x88, 0x3f, 0xfe, 0x23, 0x8a, 0x3d,
  0x16, 0xcc, 0x96, 0x3e, 0x7e, 0x40, 0x09, 0xbe, 0x60, 0x18, 0xb9, 0xbc,
  0x55, 0xb1, 0xbb, 0x3e, 0x6c, 0x48, 0xef, 0xbd, 0xd2, 0xb6, 0xc7, 0xbe,
  0x80, 0x26, 0x57, 0xbe, 0x0e, 0x56, 0x92, 0xbe, 0xb3, 0xd0, 0xfb, 0x3e,
  0xf4, 0xf1, 0x42, 0xbd, 0x66, 0xe4, 0x94, 0xbf, 0x40, 0x49, 0x0d, 0x3e,
  0x88, 0xc2, 0x40, 0x3e, 0x6b, 0x60, 0x9d, 0xbc, 0x3b, 0xa6, 0xca, 0xbe,
  0x22, 0x12, 0x89, 0xbe, 0xca, 0xac, 0x19, 0xbe, 0x07, 0xea, 0x59, 0xbe,
  0x6f, 0x5b, 0x8f, 0x3d, 0xae, 0xb3, 0x23, 0xbe, 0x27, 0xfd, 0xd3, 0xbe,
  0x2b, 0xe9, 0xbf, 0xbd, 0xeb, 0x27, 0xb1, 0x3f, 0xdf, 0x29, 0xa0, 0x3d,
  0xf0, 0xeb, 0xcf, 0xbe, 0xba, 0xb0, 0xb5, 0x3d, 0x73, 0x66, 0xf1, 0xbd,
  0x26, 0x09, 0xf8, 0x3e, 0x64, 0x71, 0xf4, 0xbe, 0xe5, 0xe4, 0x35, 0xbe,
  0x5c, 0xa4, 0xfd, 0x3d, 0x59, 0x21, 0xc8, 0x3e, 0x67, 0x99, 0x98, 0x3e,
  0x65, 0xc9, 0xb1, 0x3e, 0x58, 0x62, 0xc2, 0xbd, 0x35, 0x61, 0x29, 0xbe,
  0x31, 0xa1, 0x50, 0xbe, 0xf6, 0xca, 0xc5, 0xbe, 0x5c, 0x82, 0xb8, 0xbe,
  0x06, 0xf0, 0x97, 0x3e, 0xc4, 0xb7, 0xa6, 0xbd, 0x01, 0x04, 0x48, 0xbe,
  0xb3, 0x1f, 0xac, 0xbd, 0xad, 0xa2, 0x93, 0x3d, 0xd9, 0x0b, 0x8e, 0x3e,
  0x2a, 0x1c, 0x5c, 0x3e, 0xc7, 0xb6, 0x9e, 0x3e, 0x79, 0x30, 0xa4, 0xbe,
  0x77, 0xc3, 0xb6, 0xbe, 0x00, 0x64, 0x40, 0xbb, 0x03, 0x19, 0x6b, 0xbe,
  0xf8, 0xcb, 0x00, 0x3e, 0x65, 0x67, 0x50, 0xbe, 0xf5, 0x27, 0x4f, 0xbe,
  0xd8, 0x54, 0x8c, 0x3e, 0xa0, 0x84, 0x6c, 0x3e, 0x92, 0x44, 0x4f, 0x3e,
  0x58, 0x05, 0x8d, 0xbd, 0x01, 0xec, 0x74, 0xbe, 0xf8, 0x04, 0x7a, 0x3e,
  0x6f, 0xaf, 0x5d, 0xbd, 0xea, 0x34, 0x82, 0x3d, 0xfb, 0x89, 0x38, 0x3e,
  0x8e, 0xf2, 0x9e, 0x3e, 0xec, 0xb8, 0x0f, 0xbf, 0xef, 0x59, 0xa3, 0x3e,
  0x71, 0x46, 0x03, 0x3e, 0x9f, 0x2a, 0x40, 0xbd, 0xec, 0x00, 0x3f, 0x3f,
  0xfc, 0x0c, 0xb6, 0xbe, 0x9c, 0xee, 0x80, 0xbf, 0x7b, 0x0c, 0xbb, 0x3e,
  0x3e, 0xde, 0x73, 0x3c, 0x28, 0x1d, 0x6a, 0x3e, 0x71, 0x63, 0x2c, 0x3f,
  0x0f, 0xec, 0x59, 0xbe, 0xb8, 0xbb, 0x28, 0xbf, 0xa5, 0x2e, 0x46, 0x3e,
  0xfb, 0xba, 0xc5, 0x3e, 0x5a, 0xe1, 0xeb, 0xbd, 0x2e, 0xd2, 0x31, 0x3e,
  0xd2, 0x38, 0x62, 0x3e, 0xd0, 0x68, 0x8b, 0xbe, 0xbd, 0x4b, 0x8e, 0xbe,
  0xae, 0xd1, 0x13, 0xbe, 0x58, 0x82, 0xe7, 0xbd, 0xc3, 0x35, 0x9b, 0xbd,
  0xa9, 0xda, 0xc2, 0x3e, 0x9d, 0xf5, 0x73, 0x3e, 0x72, 0x93, 0xfb, 0x3d,
  0xdc, 0xa5, 0x97, 0x3e, 0x71, 0x70, 0x13, 0xbe, 0x85, 0xfe, 0x39, 0xbe,
  0x72, 0x83, 0x66, 0x3e, 0x60, 0x34, 0x1f, 0xbd, 0x66, 0x46, 0xb2, 0xbe,
  0x00, 0xb3, 0x7c, 0xbc, 0x5d, 0x33, 0x28, 0xbe, 0xca, 0x33, 0x3b, 0xbf,
  0x6f, 0x8e, 0x89, 0x3e, 0x6c, 0x68, 0x5b, 0x3f, 0x69, 0x18, 0x40, 0x3e,
  0xe5, 0x87, 0x9e, 0xbd, 0x7a, 0x80, 0x36, 0x3d, 0x64, 0x97, 0x16, 0x3d,
  0xed, 0x5a, 0x60, 0xbf, 0xc6, 0x38, 0x17, 0x3f, 0x90, 0xeb, 0x9b, 0xbd,
  0xb3, 0xff, 0xad, 0x3e, 0x80, 0x24, 0xdb, 0x3d, 0x91, 0x87, 0x26, 0x3d,
  0x75, 0x6d, 0xaf, 0xbe, 0x18, 0xa1, 0xc6, 0x3d, 0x92, 0x35, 0xfb, 0xbe,
  0x86, 0xcf, 0x60, 0xbb, 0x42, 0xef, 0xa0, 0x3e, 0x2d, 0x85, 0x8a, 0xbe,
  0x1b, 0x97, 0xde, 0xbc, 0x38, 0xd3, 0x9b, 0x3f, 0x1a, 0xf0, 0x92, 0xbc,
  0xb7, 0xce, 0x0e, 0xbe, 0x66, 0xfb, 0xae, 0x3e, 0x66, 0xe6, 0xb2, 0xbe,
  0x1e, 0x1d, 0x59, 0x3e, 0xfe, 0x70, 0x35, 0x3e, 0xcc, 0x2f, 0xb4, 0xbd,
  0xe8, 0x9e, 0x6e, 0xbd, 0x84, 0xf5, 0xa1, 0xbe, 0x6f, 0x40, 0x17, 0x3e,
  0x20, 0x30, 0x92, 0xbe, 0x78, 0xf4, 0xd4, 0xbe, 0x16, 0x0a, 0x5c, 0xbc,
  0x97, 0x82, 0x4e, 0xbe, 0xfd, 0x99, 0xb5, 0x3e, 0xe7, 0xbd, 0xf7, 0xbe,
  0x2b, 0xd7, 0xb7, 0x3e, 0x64, 0x87, 0x46, 0x3f, 0x1e, 0xa2, 0x47, 0x3e,
  0xa0, 0x34, 0x16, 0xbc, 0xe5, 0x5d, 0x29, 0xbe, 0x21, 0xa1, 0x3f, 0x3f,
  0xfe, 0x65, 0xe7, 0xbd, 0xf9, 0x12, 0x32, 0xbf, 0x58, 0x45, 0xac, 0x3d,
  0xfb, 0x58, 0x2f, 0x3e, 0x47, 0xd8, 0x1d, 0x3d, 0x97, 0xfc, 0x48, 0xbe,
  0xca, 0x48, 0x0d, 0xbe, 0x68, 0xf6, 0x8d, 0x3f, 0x86, 0x4b, 0x15, 0x3e,
  0xce, 0x55, 0x9e, 0x3e, 0x41, 0xd0, 0x40, 0xbe, 0xd5, 0xa2, 0x01, 0xbf,
  0x30, 0xf0, 0x9c, 0xbe, 0x91, 0x62, 0x53, 0x3f, 0x06, 0x6e, 0x54, 0x3e,
  0x8c, 0xae, 0x93, 0x3e, 0x9c, 0x83, 0x34, 0x3e, 0x78, 0x8b, 0xc2, 0xbd,
  0x50, 0x59, 0xbf, 0x3d, 0x7f, 0x4c, 0x83, 0x3f, 0x40, 0x99, 0x64, 0x3e,
  0x8d, 0xd2, 0x3c, 0x3e, 0x1a, 0x60, 0x17, 0x3e, 0xf0, 0xcb, 0x1d, 0xbe,
  0xa3, 0x8b, 0x37, 0xbf, 0x20, 0x5d, 0xa9, 0x3f, 0xb9, 0xd9, 0x22, 0xbe,
  0xa5, 0x43, 0xee, 0xbe, 0x83, 0xdf, 0xbc, 0x3e, 0x6e, 0xfe, 0xff, 0xff,
  0x04, 0x00, 0x00, 0x00, 0x00, 0x01, 0x00, 0x00, 0x45, 0x88, 0xd2, 0x3e,
  0x00, 0xb4, 0x25, 0x3f, 0x57, 0x2a, 0x5e, 0x3e, 0x80, 0xfa, 0x68, 0xbe,
  0x90, 0x82, 0xfd, 0x3c, 0xff, 0xd4, 0xd9, 0xbe, 0xdf, 0xc5, 0x50, 0xbe,
  0xfa, 0x51, 0xe0, 0x3d, 0xe7, 0x76, 0xdf, 0xbe, 0x0e, 0xd8, 0x88, 0xbe,
  0x8a, 0x41, 0xa5, 0xbe, 0x94, 0x47, 0xd3, 0xbe, 0x60, 0x6c, 0x0f, 0xbe,
  0x11, 0xf7, 0x7d, 0xbe, 0x0f, 0xbb, 0x2c, 0xbe, 0x20, 0xbb, 0x7a, 0xbe,
  0xe7, 0x28, 0x81, 0x3d, 0x39, 0x06, 0x80, 0x3e, 0x4b, 0x7b, 0x9e, 0x3e,
  0xa8, 0x7e, 0x9e, 0xbe, 0xb6, 0xab, 0xb5, 0x3e, 0x40, 0xd7, 0x58, 0x3e,
  0xea, 0x86, 0x8b, 0xbe, 0x66, 0xd3, 0x32, 0x3f, 0xb4, 0x1c, 0xca, 0xbd,
  0xc2, 0x19, 0xa5, 0xbd, 0xff, 0x69, 0xf5, 0x3e, 0x78, 0x37, 0xf5, 0xbe,
  0x95, 0x9b, 0x46, 0xbe, 0xb6, 0xcf, 0xc7, 0x3d, 0xdc, 0x58, 0x56, 0x3e,
  0xa5, 0xba, 0x97, 0x3c, 0x22, 0x9a, 0xcb, 0x3d, 0x3b, 0x47, 0x12, 0xbf,
  0xc4, 0x4d, 0xbe, 0x3e, 0xfb, 0xec, 0xe1, 0xbe, 0x64, 0x31, 0xf8, 0xbd,
  0xf9, 0x17, 0x87, 0xbe, 0xc1, 0xfa, 0x59, 0x3e, 0x82, 0x37, 0x07, 0xbf,
  0x8d, 0xe9, 0xd1, 0x3d, 0x8a, 0x00, 0xc2, 0xbe, 0x02, 0xb3, 0x9d, 0x3b,
  0x08, 0xd4, 0x9a, 0xbe, 0xc1, 0x02, 0x19, 0xbc, 0x58, 0xe0, 0x4d, 0xbd,
  0x3a, 0x0c, 0x9a, 0x3e, 0x5c, 0x8a, 0xae, 0x3e, 0x70, 0x1a, 0xf8, 0x3e,
  0x82, 0x24, 0x13, 0x3e, 0x45, 0xd9, 0x74, 0xbe, 0x1f, 0xa4, 0x9c, 0x3e,
  0xff, 0x7c, 0x82, 0xbd, 0xce, 0xee, 0x6e, 0xbe, 0x4e, 0x39, 0x7b, 0x3e,
  0x14, 0xd9, 0x8b, 0xbe, 0xf0, 0xdc, 0xf0, 0xbd, 0xc5, 0x6a, 0xa3, 0x3e,
  0x6a, 0xf4, 0xbc, 0xbe, 0xee, 0xaf, 0x80, 0x3e, 0x24, 0x97, 0xe8, 0xbe,
  0xa3, 0xbd, 0xed, 0xbe, 0xff, 0xd8, 0xd4, 0xbe, 0xcb, 0x85, 0x29, 0xbf,
  0xc4, 0xfa, 0xff, 0xff, 0xc8, 0xfa, 0xff, 0xff, 0x0f, 0x00, 0x00, 0x00,
  0x4d, 0x4c, 0x49, 0x52, 0x20, 0x43, 0x6f, 0x6e, 0x76, 0x65, 0x72, 0x74,
  0x65, 0x64, 0x2e, 0x00, 0x01, 0x00, 0x00, 0x00, 0x14, 0x00, 0x00, 0x00,
  0x00, 0x00, 0x0e, 0x00, 0x18, 0x00, 0x14, 0x00, 0x10, 0x00, 0x0c, 0x00,
  0x08, 0x00, 0x04, 0x00, 0x0e, 0x00, 0x00, 0x00, 0x14, 0x00, 0x00, 0x00,
  0x1c, 0x00, 0x00, 0x00, 0x24, 0x01, 0x00, 0x00, 0x28, 0x01, 0x00, 0x00,
  0x2c, 0x01, 0x00, 0x00, 0x04, 0x00, 0x00, 0x00, 0x6d, 0x61, 0x69, 0x6e,
  0x00, 0x00, 0x00, 0x00, 0x04, 0x00, 0x00, 0x00, 0xdc, 0x00, 0x00, 0x00,
  0x88, 0x00, 0x00, 0x00, 0x40, 0x00, 0x00, 0x00, 0x04, 0x00, 0x00, 0x00,
  0x92, 0xff, 0xff, 0xff, 0x1c, 0x00, 0x00, 0x00, 0x00, 0x00, 0x00, 0x09,
  0x1c, 0x00, 0x00, 0x00, 0x20, 0x00, 0x00, 0x00, 0x02, 0x00, 0x00, 0x00,
  0x00, 0x00, 0x06, 0x00, 0x08, 0x00, 0x04, 0x00, 0x06, 0x00, 0x00, 0x00,
  0x00, 0x00, 0x80, 0x3f, 0x01, 0x00, 0x00, 0x00, 0x09, 0x00, 0x00, 0x00,
  0x01, 0x00, 0x00, 0x00, 0x08, 0x00, 0x00, 0x00, 0xca, 0xff, 0xff, 0xff,
  0x14, 0x00, 0x00, 0x00, 0x00, 0x00, 0x00, 0x08, 0x10, 0x00, 0x00, 0x00,
  0x14, 0x00, 0x00, 0x00, 0x01, 0x00, 0x00, 0x00, 0x80, 0xfb, 0xff, 0xff,
  0x01, 0x00, 0x00, 0x00, 0x08, 0x00, 0x00, 0x00, 0x03, 0x00, 0x00, 0x00,
  0x07, 0x00, 0x00, 0x00, 0x01, 0x00, 0x00, 0x00, 0x03, 0x00, 0x00, 0x00,
  0x00, 0x00, 0x0e, 0x00, 0x1a, 0x00, 0x14, 0x00, 0x10, 0x00, 0x0c, 0x00,
  0x0b, 0x00, 0x04, 0x00, 0x0e, 0x00, 0x00, 0x00, 0x1c, 0x00, 0x00, 0x00,
  0x00, 0x00, 0x00, 0x08, 0x1c, 0x00, 0x00, 0x00, 0x20, 0x00, 0x00, 0x00,
  0x01, 0x00, 0x00, 0x00, 0x00, 0x00, 0x06, 0x00, 0x08, 0x00, 0x07, 0x00,
  0x06, 0x00, 0x00, 0x00, 0x00, 0x00, 0x00, 0x01, 0x01, 0x00, 0x00, 0x00,
  0x07, 0x00, 0x00, 0x00, 0x03, 0x00, 0x00, 0x00, 0x06, 0x00, 0x00, 0x00,
  0x02, 0x00, 0x00, 0x00, 0x04, 0x00, 0x00, 0x00, 0x00, 0x00, 0x0e, 0x00,
  0x14, 0x00, 0x00, 0x00, 0x10, 0x00, 0x0c, 0x00, 0x0b, 0x00, 0x04, 0x00,
  0x0e, 0x00, 0x00, 0x00, 0x10, 0x00, 0x00, 0x00, 0x00, 0x00, 0x00, 0x1b,
  0x0c, 0x00, 0x00, 0x00, 0x10, 0x00, 0x00, 0x00, 0x10, 0xfc, 0xff, 0xff,
  0x01, 0x00, 0x00, 0x00, 0x06, 0x00, 0x00, 0x00, 0x02, 0x00, 0x00, 0x00,
  0x00, 0x00, 0x00, 0x00, 0x05, 0x00, 0x00, 0x00, 0x01, 0x00, 0x00, 0x00,
  0x09, 0x00, 0x00, 0x00, 0x01, 0x00, 0x00, 0x00, 0x00, 0x00, 0x00, 0x00,
  0x0a, 0x00, 0x00, 0x00, 0x98, 0x03, 0x00, 0x00, 0x40, 0x03, 0x00, 0x00,
  0xe8, 0x02, 0x00, 0x00, 0xac, 0x02, 0x00, 0x00, 0x70, 0x02, 0x00, 0x00,
  0x08, 0x02, 0x00, 0x00, 0x84, 0x01, 0x00, 0x00, 0xe4, 0x00, 0x00, 0x00,
  0x60, 0x00, 0x00, 0x00, 0x04, 0x00, 0x00, 0x00, 0xa6, 0xfc, 0xff, 0xff,
  0x00, 0x00, 0x00, 0x01, 0x14, 0x00, 0x00, 0x00, 0x1c, 0x00, 0x00, 0x00,
  0x1c, 0x00, 0x00, 0x00, 0x0a, 0x00, 0x00, 0x00, 0x34, 0x00, 0x00, 0x00,
  0x02, 0x00, 0x00, 0x00, 0xff, 0xff, 0xff, 0xff, 0x02, 0x00, 0x00, 0x00,
  0x8c, 0xfc, 0xff, 0xff, 0x1b, 0x00, 0x00, 0x00, 0x53, 0x74, 0x61, 0x74,
  0x65, 0x66, 0x75, 0x6c, 0x50, 0x61, 0x72, 0x74, 0x69, 0x74, 0x69, 0x6f,
  0x6e, 0x65, 0x64, 0x43, 0x61, 0x6c, 0x6c, 0x5f, 0x31, 0x3a, 0x30, 0x00,
  0x02, 0x00, 0x00, 0x00, 0x01, 0x00, 0x00, 0x00, 0x02, 0x00, 0x00, 0x00,
  0xfe, 0xfc, 0xff, 0xff, 0x00, 0x00, 0x00, 0x01, 0x14, 0x00, 0x00, 0x00,
  0x1c, 0x00, 0x00, 0x00, 0x1c, 0x00, 0x00, 0x00, 0x09, 0x00, 0x00, 0x00,
  0x5c, 0x00, 0x00, 0x00, 0x02, 0x00, 0x00, 0x00, 0xff, 0xff, 0xff, 0xff,
  0x02, 0x00, 0x00, 0x00, 0xe4, 0xfc, 0xff, 0xff, 0x40, 0x00, 0x00, 0x00,
  0x73, 0x65, 0x71, 0x75, 0x65, 0x6e, 0x74, 0x69, 0x61, 0x6c, 0x5f, 0x32,
  0x5f, 0x31, 0x2f, 0x64, 0x65, 0x6e, 0x73, 0x65, 0x5f, 0x35, 0x5f, 0x31,
  0x2f, 0x4d, 0x61, 0x74, 0x4d, 0x75, 0x6c, 0x3b, 0x73, 0x65, 0x71, 0x75,
  0x65, 0x6e, 0x74, 0x69, 0x61, 0x6c, 0x5f, 0x32, 0x5f, 0x31, 0x2f, 0x64,
  0x65, 0x6e, 0x73, 0x65, 0x5f, 0x35, 0x5f, 0x31, 0x2f, 0x42, 0x69, 0x61,
  0x73, 0x41, 0x64, 0x64, 0x00, 0x00, 0x00, 0x00, 0x02, 0x00, 0x00, 0x00,
  0x01, 0x00, 0x00, 0x00, 0x02, 0x00, 0x00, 0x00, 0x7e, 0xfd, 0xff, 0xff,
  0x00, 0x00, 0x00, 0x01, 0x14, 0x00, 0x00, 0x00, 0x1c, 0x00, 0x00, 0x00,
  0x1c, 0x00, 0x00, 0x00, 0x08, 0x00, 0x00, 0x00, 0x78, 0x00, 0x00, 0x00,
  0x02, 0x00, 0x00, 0x00, 0xff, 0xff, 0xff, 0xff, 0x20, 0x00, 0x00, 0x00,
  0x64, 0xfd, 0xff, 0xff, 0x5e, 0x00, 0x00, 0x00, 0x73, 0x65, 0x71, 0x75,
  0x65, 0x6e, 0x74, 0x69, 0x61, 0x6c, 0x5f, 0x32, 0x5f, 0x31, 0x2f, 0x64,
  0x65, 0x6e, 0x73, 0x65, 0x5f, 0x34, 0x5f, 0x31, 0x2f, 0x4d, 0x61, 0x74,
  0x4d, 0x75, 0x6c, 0x3b, 0x73, 0x65, 0x71, 0x75, 0x65, 0x6e, 0x74, 0x69,
  0x61, 0x6c, 0x5f, 0x32, 0x5f, 0x31, 0x2f, 0x64, 0x65, 0x6e, 0x73, 0x65,
  0x5f, 0x34, 0x5f, 0x31, 0x2f, 0x52, 0x65, 0x6c, 0x75, 0x3b, 0x73, 0x65,
  0x71, 0x75, 0x65, 0x6e, 0x74, 0x69, 0x61, 0x6c, 0x5f, 0x32, 0x5f, 0x31,
  0x2f, 0x64, 0x65, 0x6e, 0x73, 0x65, 0x5f, 0x34, 0x5f, 0x31, 0x2f, 0x42,
  0x69, 0x61, 0x73, 0x41, 0x64, 0x64, 0x00, 0x00, 0x02, 0x00, 0x00, 0x00,
  0x01, 0x00, 0x00, 0x00, 0x20, 0x00, 0x00, 0x00, 0x1a, 0xfe, 0xff, 0xff,
  0x00, 0x00, 0x00, 0x01, 0x14, 0x00, 0x00, 0x00, 0x1c, 0x00, 0x00, 0x00,
  0x1c, 0x00, 0x00, 0x00, 0x07, 0x00, 0x00, 0x00, 0x44, 0x00, 0x00, 0x00,
  0x02, 0x00, 0x00, 0x00, 0xff, 0xff, 0xff, 0xff, 0x06, 0x00, 0x00, 0x00,
  0x00, 0xfe, 0xff, 0xff, 0x29, 0x00, 0x00, 0x00, 0x73, 0x65, 0x71, 0x75,
  0x65, 0x6e, 0x74, 0x69, 0x61, 0x6c, 0x5f, 0x32, 0x5f, 0x31, 0x2f, 0x67,
  0x6c, 0x6f, 0x62, 0x61, 0x6c, 0x5f, 0x6d, 0x61, 0x78, 0x5f, 0x70, 0x6f,
  0x6f, 0x6c, 0x69, 0x6e, 0x67, 0x31, 0x64, 0x5f, 0x31, 0x2f, 0x4d, 0x61,
  0x78, 0x00, 0x00, 0x00, 0x02, 0x00, 0x00, 0x00, 0x01, 0x00, 0x00, 0x00,
  0x06, 0x00, 0x00, 0x00, 0x00, 0x00, 0x16, 0x00, 0x1c, 0x00, 0x18, 0x00,
  0x17, 0x00, 0x10, 0x00, 0x0c, 0x00, 0x08, 0x00, 0x00, 0x00, 0x00, 0x00,
  0x00, 0x00, 0x07, 0x00, 0x16, 0x00, 0x00, 0x00, 0x00, 0x00, 0x00, 0x01,
  0x14, 0x00, 0x00, 0x00, 0x14, 0x00, 0x00, 0x00, 0x06, 0x00, 0x00, 0x00,
  0x00, 0x00, 0x00, 0x02, 0x48, 0x00, 0x00, 0x00, 0x74, 0xfe, 0xff, 0xff,
  0x3b, 0x00, 0x00, 0x00, 0x73, 0x65, 0x71, 0x75, 0x65, 0x6e, 0x74, 0x69,
  0x61, 0x6c, 0x5f, 0x32, 0x5f, 0x31, 0x2f, 0x67, 0x6c, 0x6f, 0x62, 0x61,
  0x6c, 0x5f, 0x6d, 0x61, 0x78, 0x5f, 0x70, 0x6f, 0x6f, 0x6c, 0x69, 0x6e,
  0x67, 0x31, 0x64, 0x5f, 0x31, 0x2f, 0x4d, 0x61, 0x78, 0x2f, 0x72, 0x65,
  0x64, 0x75, 0x63, 0x74, 0x69, 0x6f, 0x6e, 0x5f, 0x69, 0x6e, 0x64, 0x69,
  0x63, 0x65, 0x73, 0x00, 0x00, 0x00, 0x00, 0x00, 0x52, 0xff, 0xff, 0xff,
  0x00, 0x00, 0x00, 0x01, 0x10, 0x00, 0x00, 0x00, 0x10, 0x00, 0x00, 0x00,
  0x05, 0x00, 0x00, 0x00, 0x1c, 0x00, 0x00, 0x00, 0xd4, 0xfe, 0xff, 0xff,
  0x0f, 0x00, 0x00, 0x00, 0x61, 0x72, 0x69, 0x74, 0x68, 0x2e, 0x63, 0x6f,
  0x6e, 0x73, 0x74, 0x61, 0x6e, 0x74, 0x33, 0x00, 0x01, 0x00, 0x00, 0x00,
  0x20, 0x00, 0x00, 0x00, 0x8a, 0xff, 0xff, 0xff, 0x00, 0x00, 0x00, 0x01,
  0x10, 0x00, 0x00, 0x00, 0x10, 0x00, 0x00, 0x00, 0x04, 0x00, 0x00, 0x00,
  0x1c, 0x00, 0x00, 0x00, 0x0c, 0xff, 0xff, 0xff, 0x0f, 0x00, 0x00, 0x00,
  0x61, 0x72, 0x69, 0x74, 0x68, 0x2e, 0x63, 0x6f, 0x6e, 0x73, 0x74, 0x61,
  0x6e, 0x74, 0x32, 0x00, 0x01, 0x00, 0x00, 0x00, 0x02, 0x00, 0x00, 0x00,
  0xc2, 0xff, 0xff, 0xff, 0x00, 0x00, 0x00, 0x01, 0x10, 0x00, 0x00, 0x00,
  0x10, 0x00, 0x00, 0x00, 0x03, 0x00, 0x00, 0x00, 0x1c, 0x00, 0x00, 0x00,
  0x44, 0xff, 0xff, 0xff, 0x0f, 0x00, 0x00, 0x00, 0x61, 0x72, 0x69, 0x74,
  0x68, 0x2e, 0x63, 0x6f, 0x6e, 0x73, 0x74, 0x61, 0x6e, 0x74, 0x31, 0x00,
  0x02, 0x00, 0x00, 0x00, 0x20, 0x00, 0x00, 0x00, 0x06, 0x00, 0x00, 0x00,
  0x00, 0x00, 0x16, 0x00, 0x18, 0x00, 0x14, 0x00, 0x00, 0x00, 0x10, 0x00,
  0x0c, 0x00, 0x08, 0x00, 0x00, 0x00, 0x00, 0x00, 0x00, 0x00, 0x07, 0x00,
  0x16, 0x00, 0x00, 0x00, 0x00, 0x00, 0x00, 0x01, 0x10, 0x00, 0x00, 0x00,
  0x10, 0x00, 0x00, 0x00, 0x02, 0x00, 0x00, 0x00, 0x1c, 0x00, 0x00, 0x00,
  0x98, 0xff, 0xff, 0xff, 0x0e, 0x00, 0x00, 0x00, 0x61, 0x72, 0x69, 0x74,
  0x68, 0x2e, 0x63, 0x6f, 0x6e, 0x73, 0x74, 0x61, 0x6e, 0x74, 0x00, 0x00,
  0x02, 0x00, 0x00, 0x00, 0x02, 0x00, 0x00, 0x00, 0x20, 0x00, 0x00, 0x00,
  0x00, 0x00, 0x16, 0x00, 0x1c, 0x00, 0x18, 0x00, 0x00, 0x00, 0x14, 0x00,
  0x10, 0x00, 0x0c, 0x00, 0x00, 0x00, 0x00, 0x00, 0x08, 0x00, 0x07, 0x00,
  0x16, 0x00, 0x00, 0x00, 0x00, 0x00, 0x00, 0x01, 0x14, 0x00, 0x00, 0x00,
  0x24, 0x00, 0x00, 0x00, 0x24, 0x00, 0x00, 0x00, 0x01, 0x00, 0x00, 0x00,
  0x38, 0x00, 0x00, 0x00, 0x03, 0x00, 0x00, 0x00, 0xff, 0xff, 0xff, 0xff,
  0x14, 0x00, 0x00, 0x00, 0x06, 0x00, 0x00, 0x00, 0x04, 0x00, 0x04, 0x00,
  0x04, 0x00, 0x00, 0x00, 0x17, 0x00, 0x00, 0x00, 0x73, 0x65, 0x72, 0x76,
  0x69, 0x6e, 0x67, 0x5f, 0x64, 0x65, 0x66, 0x61, 0x75, 0x6c, 0x74, 0x5f,
  0x69, 0x6e, 0x70, 0x75, 0x74, 0x3a, 0x30, 0x00, 0x03, 0x00, 0x00, 0x00,
  0x01, 0x00, 0x00, 0x00, 0x14, 0x00, 0x00, 0x00, 0x06, 0x00, 0x00, 0x00,
  0x03, 0x00, 0x00, 0x00, 0x30, 0x00, 0x00, 0x00, 0x14, 0x00, 0x00, 0x00,
  0x04, 0x00, 0x00, 0x00, 0xe8, 0xff, 0xff, 0xff, 0x19, 0x00, 0x00, 0x00,
  0x00, 0x00, 0x00, 0x19, 0xf4, 0xff, 0xff, 0xff, 0x09, 0x00, 0x00, 0x00,
  0x00, 0x00, 0x00, 0x09, 0x0c, 0x00, 0x0c, 0x00, 0x0b, 0x00, 0x00, 0x00,
  0x00, 0x00, 0x04, 0x00, 0x0c, 0x00, 0x00, 0x00, 0x52, 0x00, 0x00, 0x00,
  0x00, 0x00, 0x00, 0x52
};
